#ifndef PIPE_LEAK_MODEL_DATA_H_
#define PIPE_LEAK_MODEL_DATA_H_

#include <cstddef>
#include <cstdint>
#include <avr/pgmspace.h>
// TensorFlow Lite model data converted to C++ array
alignas(8) const unsigned char g_pipe_leak_model[] PROGMEM = {
  0x20, 0x00, 0x00, 0x00, 0x54, 0x46, 0x4c, 0x33, 0x00, 0x00, 0x00, 0x00,
  0x14, 0x00, 0x20, 0x00, 0x1c, 0x00, 0x18, 0x00, 0x14, 0x00, 0x10, 0x00,
  0x0c, 0x00, 0x00, 0x00, 0x08, 0x00, 0x04, 0x00, 0x14, 0x00, 0x00, 0x00,
  0x1c, 0x00, 0x00, 0x00, 0x8c, 0x00, 0x00, 0x00, 0x0c, 0x01, 0x00, 0x00,
  0xd8, 0x07, 0x00, 0x00, 0xe8, 0x07, 0x00, 0x00, 0xb0, 0x14, 0x00, 0x00,
  0x03, 0x00, 0x00, 0x00, 0x01, 0x00, 0x00, 0x00, 0x04, 0x00, 0x00, 0x00,
  0xd2, 0xf7, 0xff, 0xff, 0x0c, 0x00, 0x00, 0x00, 0x1c, 0x00, 0x00, 0x00,
  0x3c, 0x00, 0x00, 0x00, 0x0f, 0x00, 0x00, 0x00, 0x73, 0x65, 0x72, 0x76,
  0x69, 0x6e, 0x67, 0x5f, 0x64, 0x65, 0x66, 0x61, 0x75, 0x6c, 0x74, 0x00,
  0x01, 0x00, 0x00, 0x00, 0x04, 0x00, 0x00, 0x00, 0x68, 0xff, 0xff, 0xff,
  0x0c, 0x00, 0x00, 0x00, 0x04, 0x00, 0x00, 0x00, 0x08, 0x00, 0x00, 0x00,
  0x6f, 0x75, 0x74, 0x70, 0x75, 0x74, 0x5f, 0x30, 0x00, 0x00, 0x00, 0x00,
  0x01, 0x00, 0x00, 0x00, 0x04, 0x00, 0x00, 0x00, 0xde, 0xf7, 0xff, 0xff,
  0x04, 0x00, 0x00, 0x00, 0x0e, 0x00, 0x00, 0x00, 0x6b, 0x65, 0x72, 0x61,
  0x73, 0x5f, 0x74, 0x65, 0x6e, 0x73, 0x6f, 0x72, 0x5f, 0x35, 0x00, 0x00,
  0x03, 0x00, 0x00, 0x00, 0x5c, 0x00, 0x00, 0x00, 0x2c, 0x00, 0x00, 0x00,
  0x04, 0x00, 0x00, 0x00, 0xb8, 0xff, 0xff, 0xff, 0x10, 0x00, 0x00, 0x00,
  0x04, 0x00, 0x00, 0x00, 0x13, 0x00, 0x00, 0x00, 0x43, 0x4f, 0x4e, 0x56,
  0x45, 0x52, 0x53, 0x49, 0x4f, 0x4e, 0x5f, 0x4d, 0x45, 0x54, 0x41, 0x44,
  0x41, 0x54, 0x41, 0x00, 0xdc, 0xff, 0xff, 0xff, 0x0f, 0x00, 0x00, 0x00,
  0x04, 0x00, 0x00, 0x00, 0x13, 0x00, 0x00, 0x00, 0x6d, 0x69, 0x6e, 0x5f,
  0x72, 0x75, 0x6e, 0x74, 0x69, 0x6d, 0x65, 0x5f, 0x76, 0x65, 0x72, 0x73,
  0x69, 0x6f, 0x6e, 0x00, 0x08, 0x00, 0x0c, 0x00, 0x08, 0x00, 0x04, 0x00,
  0x08, 0x00, 0x00, 0x00, 0x0e, 0x00, 0x00, 0x00, 0x04, 0x00, 0x00, 0x00,
  0x13, 0x00, 0x00, 0x00, 0x6d, 0x69, 0x6e, 0x5f, 0x72, 0x75, 0x6e, 0x74,
  0x69, 0x6d, 0x65, 0x5f, 0x76, 0x65, 0x72, 0x73, 0x69, 0x6f, 0x6e, 0x00,
  0x11, 0x00, 0x00, 0x00, 0xc8, 0x06, 0x00, 0x00, 0xc0, 0x06, 0x00, 0x00,
  0xa4, 0x06, 0x00, 0x00, 0x64, 0x06, 0x00, 0x00, 0x14, 0x06, 0x00, 0x00,
  0x04, 0x04, 0x00, 0x00, 0x74, 0x03, 0x00, 0x00, 0xe4, 0x00, 0x00, 0x00,
  0xdc, 0x00, 0x00, 0x00, 0xd4, 0x00, 0x00, 0x00, 0xcc, 0x00, 0x00, 0x00,
  0xc4, 0x00, 0x00, 0x00, 0xbc, 0x00, 0x00, 0x00, 0xb4, 0x00, 0x00, 0x00,
  0x94, 0x00, 0x00, 0x00, 0x74, 0x00, 0x00, 0x00, 0x04, 0x00, 0x00, 0x00,
  0xc6, 0xf8, 0xff, 0xff, 0x04, 0x00, 0x00, 0x00, 0x60, 0x00, 0x00, 0x00,
  0x0c, 0x00, 0x00, 0x00, 0x08, 0x00, 0x0e, 0x00, 0x08, 0x00, 0x04, 0x00,
  0x08, 0x00, 0x00, 0x00, 0x10, 0x00, 0x00, 0x00, 0x28, 0x00, 0x00, 0x00,
  0x00, 0x00, 0x06, 0x00, 0x08, 0x00, 0x04, 0x00, 0x06, 0x00, 0x00, 0x00,
  0x04, 0x00, 0x00, 0x00, 0x01, 0x00, 0x00, 0x00, 0xeb, 0x03, 0x00, 0x00,
  0x0c, 0x00, 0x18, 0x00, 0x14, 0x00, 0x10, 0x00, 0x0c, 0x00, 0x04, 0x00,
  0x0c, 0x00, 0x00, 0x00, 0xe4, 0x3a, 0x29, 0x8f, 0xdf, 0x15, 0x6c, 0x42,
  0x02, 0x00, 0x00, 0x00, 0x02, 0x00, 0x00, 0x00, 0x04, 0x00, 0x00, 0x00,
  0x06, 0x00, 0x00, 0x00, 0x32, 0x2e, 0x31, 0x39, 0x2e, 0x30, 0x00, 0x00,
  0x32, 0xf9, 0xff, 0xff, 0x04, 0x00, 0x00, 0x00, 0x10, 0x00, 0x00, 0x00,
  0x00, 0x00, 0x00, 0x00, 0x00, 0x00, 0x00, 0x00, 0x00, 0x00, 0x00, 0x00,
  0x00, 0x00, 0x00, 0x00, 0x4e, 0xf9, 0xff, 0xff, 0x04, 0x00, 0x00, 0x00,
  0x10, 0x00, 0x00, 0x00, 0x31, 0x2e, 0x31, 0x34, 0x2e, 0x30, 0x00, 0x00,
  0x00, 0x00, 0x00, 0x00, 0x00, 0x00, 0x00, 0x00, 0x78, 0xed, 0xff, 0xff,
  0x7c, 0xed, 0xff, 0xff, 0x80, 0xed, 0xff, 0xff, 0x84, 0xed, 0xff, 0xff,
  0x88, 0xed, 0xff, 0xff, 0x8c, 0xed, 0xff, 0xff, 0x82, 0xf9, 0xff, 0xff,
  0x04, 0x00, 0x00, 0x00, 0x80, 0x02, 0x00, 0x00, 0x81, 0xd4, 0x03, 0xf9,
  0x36, 0x41, 0x26, 0x1e, 0x24, 0x15, 0x26, 0x1e, 0x2d, 0xc9, 0xfc, 0x2d,
  0xdb, 0xbd, 0xec, 0xc7, 0x7f, 0xd5, 0xd7, 0xcc, 0x23, 0xce, 0x1d, 0x02,
  0x2b, 0xdb, 0x52, 0x0d, 0xc9, 0xfe, 0xad, 0x14, 0xfa, 0xeb, 0xb6, 0xe3,
  0x7f, 0xeb, 0x1f, 0x16, 0x3d, 0xcc, 0x15, 0xeb, 0x09, 0x06, 0x0d, 0xce,
  0x2a, 0x1c, 0x24, 0xbe, 0xcf, 0xf1, 0xe6, 0xca, 0x81, 0xf4, 0x32, 0x30,
  0xaf, 0xdf, 0x1f, 0xdd, 0x05, 0x47, 0xb0, 0xbc, 0xf9, 0xad, 0x17, 0xe6,
  0xc7, 0xff, 0x4b, 0x10, 0x7f, 0xe5, 0xf4, 0xe4, 0x31, 0xdf, 0xfe, 0xd0,
  0x1e, 0xe2, 0xe4, 0xf1, 0xc9, 0xdd, 0xcc, 0x35, 0xf2, 0xd8, 0x25, 0x21,
  0x7f, 0x5d, 0x0a, 0x12, 0x99, 0x54, 0x6c, 0x7b, 0x31, 0x78, 0xfd, 0xbd,
  0x89, 0x9a, 0xd7, 0xd8, 0xc4, 0x42, 0xea, 0xef, 0x7f, 0x21, 0xf9, 0xf9,
  0x1e, 0x35, 0x03, 0x23, 0x4a, 0xc0, 0xe2, 0x24, 0xe2, 0x47, 0xb3, 0xdd,
  0xe1, 0xc6, 0x2a, 0xd0, 0x81, 0xfe, 0xe2, 0xfa, 0xd1, 0xd8, 0x32, 0xfa,
  0x05, 0x29, 0x2a, 0x28, 0xe9, 0x0f, 0xd3, 0x27, 0xca, 0xdd, 0x03, 0x2f,
  0x7f, 0x11, 0xde, 0xe5, 0xd9, 0xb0, 0x30, 0x3a, 0x54, 0xeb, 0xf6, 0xd6,
  0x41, 0xd8, 0x02, 0xfe, 0xb9, 0x01, 0xb4, 0x55, 0x81, 0x11, 0x1e, 0x0f,
  0xc2, 0x29, 0xca, 0xf5, 0x39, 0xbf, 0x14, 0x19, 0x40, 0x4e, 0x54, 0xb1,
  0xc7, 0x2e, 0xdc, 0x19, 0x7f, 0xe0, 0xda, 0xce, 0xe7, 0x3c, 0x16, 0x0e,
  0xdd, 0x25, 0xce, 0xc4, 0xd0, 0xde, 0xdc, 0xe1, 0xcf, 0xd8, 0x26, 0x06,
  0x7f, 0x11, 0xd7, 0xd7, 0x29, 0xdd, 0xe8, 0xc8, 0x41, 0xb9, 0xa6, 0xa8,
  0x13, 0x16, 0xce, 0x0c, 0xfc, 0xbd, 0xe8, 0x26, 0x81, 0xf7, 0x0a, 0x07,
  0xfc, 0x13, 0xfc, 0xd0, 0x1b, 0xe7, 0xcf, 0x36, 0x16, 0xe7, 0x2c, 0x23,
  0xf6, 0x35, 0xe0, 0xca, 0x81, 0xdc, 0x5b, 0x57, 0x62, 0x2d, 0x5f, 0xee,
  0xdc, 0x45, 0x0a, 0xd5, 0x1b, 0x07, 0xb9, 0x54, 0xeb, 0x42, 0x8f, 0x22,
  0x81, 0xdb, 0x23, 0x1f, 0x46, 0xe7, 0xfa, 0x4c, 0x13, 0xee, 0x0f, 0x18,
  0xe3, 0xe3, 0x11, 0xfc, 0x45, 0x0d, 0x1f, 0x36, 0x7f, 0xee, 0x07, 0x05,
  0xc1, 0x24, 0x34, 0xe4, 0x3b, 0x39, 0xf5, 0xe8, 0x24, 0x49, 0xe6, 0xf2,
  0x02, 0x2f, 0xec, 0x39, 0x91, 0xa5, 0xd3, 0xe2, 0xcc, 0xcf, 0xa7, 0xd4,
  0x24, 0x9c, 0xb5, 0x7f, 0xad, 0xe2, 0xb3, 0x84, 0xe2, 0xfb, 0xec, 0x3d,
  0x5d, 0x5d, 0xfd, 0xf5, 0x14, 0xb9, 0x7e, 0x32, 0x4f, 0x81, 0xaa, 0xcb,
  0x55, 0xed, 0x5a, 0xff, 0xc5, 0x3a, 0x99, 0x30, 0x7f, 0x3a, 0xeb, 0xf2,
  0xcf, 0xf0, 0x4e, 0x2e, 0x22, 0xd6, 0xf9, 0x1c, 0x0f, 0x52, 0xa8, 0x12,
  0x1f, 0xa4, 0xb8, 0x5b, 0x7f, 0xf0, 0xf8, 0xfd, 0xf3, 0xf0, 0xfa, 0x23,
  0x2f, 0xf6, 0x26, 0x43, 0xd5, 0xc3, 0x3e, 0x2b, 0x1c, 0xd9, 0xee, 0xf7,
  0x81, 0x11, 0x22, 0x25, 0xd5, 0x08, 0x0b, 0xd7, 0x58, 0x27, 0x42, 0xf0,
  0xd6, 0x0b, 0x66, 0x58, 0xda, 0x4c, 0x66, 0xde, 0x33, 0x0c, 0x9b, 0x4a,
  0xaa, 0xdf, 0x3c, 0x05, 0xab, 0x21, 0x1a, 0xb6, 0x07, 0x0c, 0x15, 0x15,
  0x75, 0xc6, 0x1d, 0x7f, 0x7f, 0x0f, 0xe5, 0xe7, 0xe3, 0x05, 0xc5, 0x14,
  0xfb, 0x33, 0x36, 0x21, 0x0b, 0x25, 0x18, 0x1a, 0x2e, 0x34, 0x3d, 0x4e,
  0x7f, 0xeb, 0x07, 0x02, 0xe7, 0x11, 0x08, 0xf1, 0x05, 0x1d, 0xd7, 0x19,
  0xd2, 0x11, 0xf5, 0x1c, 0xda, 0x0f, 0xd6, 0xc6, 0x81, 0x26, 0x10, 0x1e,
  0x3e, 0x1a, 0xe9, 0xf8, 0xd7, 0x1d, 0x5c, 0xb3, 0xd2, 0xe1, 0xfc, 0x47,
  0x18, 0x2a, 0xa6, 0xcd, 0x81, 0xf5, 0x0d, 0x0c, 0xe8, 0x30, 0xb4, 0xe3,
  0x3e, 0xda, 0xe4, 0xe0, 0x42, 0xd1, 0xfb, 0x21, 0x10, 0x0c, 0xf3, 0xde,
  0x7f, 0xe0, 0xf2, 0xe9, 0xe8, 0x36, 0xf4, 0xe6, 0x3a, 0x1c, 0x00, 0xde,
  0x25, 0x3f, 0xcd, 0xdb, 0x3d, 0xdf, 0x2b, 0xbf, 0x40, 0x81, 0x09, 0x07,
  0x1f, 0x17, 0x2f, 0xfa, 0xf2, 0xdb, 0xd2, 0xc9, 0xcd, 0x29, 0xdb, 0x38,
  0xea, 0x2d, 0x2b, 0x03, 0x84, 0x47, 0x2d, 0x0d, 0x0b, 0xed, 0x88, 0x81,
  0xab, 0xcc, 0xb2, 0x64, 0x69, 0x9e, 0xe1, 0xa8, 0x1c, 0xb9, 0xfc, 0x2b,
  0x7f, 0x18, 0xc5, 0xc7, 0xfe, 0x03, 0xc8, 0x18, 0x0d, 0x53, 0xbe, 0xc8,
  0xd1, 0x2b, 0x23, 0x4b, 0xcb, 0xb4, 0xed, 0xaf, 0x81, 0xa7, 0x10, 0x13,
  0xa3, 0xc7, 0x37, 0x0e, 0xd2, 0x39, 0xf0, 0xf9, 0xdd, 0x22, 0x4b, 0x2d,
  0x06, 0xd1, 0x23, 0x51, 0x7f, 0x11, 0xe9, 0xea, 0x16, 0x1c, 0xf9, 0xcc,
  0x12, 0xc0, 0xe2, 0x2a, 0x44, 0x0e, 0x02, 0xf9, 0xda, 0xf3, 0x40, 0xc0,
  0x0e, 0xfc, 0xff, 0xff, 0x04, 0x00, 0x00, 0x00, 0x80, 0x00, 0x00, 0x00,
  0xa2, 0xfd, 0xff, 0xff, 0x4c, 0xfa, 0xff, 0xff, 0xfe, 0xfa, 0xff, 0xff,
  0x75, 0xef, 0xff, 0xff, 0x7e, 0xf9, 0xff, 0xff, 0x98, 0xf3, 0xff, 0xff,
  0x65, 0x12, 0x00, 0x00, 0xeb, 0x05, 0x00, 0x00, 0xfc, 0x10, 0x00, 0x00,
  0x3a, 0xf3, 0xff, 0xff, 0x77, 0xf9, 0xff, 0xff, 0x6e, 0x0f, 0x00, 0x00,
  0xbf, 0x07, 0x00, 0x00, 0x75, 0xf1, 0xff, 0xff, 0x20, 0xfa, 0xff, 0xff,
  0x1d, 0xfb, 0xff, 0xff, 0x16, 0xfa, 0xff, 0xff, 0x08, 0x0c, 0x00, 0x00,
  0x28, 0x0d, 0x00, 0x00, 0x36, 0xfc, 0xff, 0xff, 0x12, 0x0f, 0x00, 0x00,
  0x4d, 0x0b, 0x00, 0x00, 0x15, 0x0e, 0x00, 0x00, 0xcb, 0xf8, 0xff, 0xff,
  0xd1, 0x0c, 0x00, 0x00, 0x47, 0xef, 0xff, 0xff, 0x5d, 0xf8, 0xff, 0xff,
  0x90, 0xfd, 0xff, 0xff, 0x0b, 0xf9, 0xff, 0xff, 0x38, 0x11, 0x00, 0x00,
  0x36, 0xf3, 0xff, 0xff, 0xe8, 0x0e, 0x00, 0x00, 0x9a, 0xfc, 0xff, 0xff,
  0x04, 0x00, 0x00, 0x00, 0x00, 0x02, 0x00, 0x00, 0xb8, 0x1d, 0x30, 0xa9,
  0x0b, 0xb5, 0x77, 0xee, 0x27, 0xea, 0x7f, 0xf0, 0xce, 0xe4, 0xde, 0xfd,
  0xf2, 0x04, 0x1a, 0x58, 0xc5, 0xff, 0x5b, 0x0a, 0xf2, 0xf5, 0x66, 0x19,
  0xff, 0x4c, 0xc8, 0x75, 0x0f, 0x4d, 0x7f, 0x39, 0x2b, 0x4c, 0xf4, 0xa6,
  0xe2, 0x0d, 0x55, 0x17, 0x2b, 0x38, 0x51, 0x14, 0xf9, 0xf9, 0xfc, 0x36,
  0x14, 0x25, 0xfd, 0x39, 0x06, 0x55, 0x53, 0x7e, 0xe8, 0xf9, 0x5b, 0x1b,
  0x10, 0x23, 0x33, 0x9b, 0x3e, 0xb1, 0x2d, 0x0e, 0x5c, 0x12, 0x3e, 0x4f,
  0x11, 0xe3, 0x06, 0xfe, 0xee, 0x3d, 0x44, 0x4d, 0xf1, 0x06, 0x7f, 0xe8,
  0xf4, 0xd6, 0xf5, 0xac, 0x0f, 0x17, 0xcd, 0x7c, 0x28, 0x0f, 0xae, 0xcb,
  0xc1, 0x88, 0x7e, 0x46, 0xf9, 0xc8, 0xf5, 0x37, 0x63, 0xe7, 0x54, 0x82,
  0x39, 0x4d, 0xf6, 0xaf, 0x2b, 0x26, 0x06, 0xc8, 0x60, 0xda, 0x81, 0xed,
  0x5b, 0x69, 0xd3, 0x2c, 0xd3, 0xcb, 0x1a, 0x26, 0xec, 0x58, 0x4d, 0xd1,
  0xb0, 0xd5, 0x4a, 0xff, 0x81, 0x7a, 0x7d, 0x1e, 0x64, 0x43, 0x50, 0x15,
  0xfd, 0xf5, 0x94, 0x44, 0x71, 0x3b, 0xef, 0xeb, 0x10, 0x19, 0xe4, 0xf0,
  0x11, 0x60, 0x32, 0x3d, 0x41, 0x70, 0x2a, 0xf7, 0x13, 0xd8, 0x2d, 0x1d,
  0xf0, 0xf4, 0xe3, 0x7f, 0x23, 0x16, 0x0d, 0x60, 0xd4, 0xfa, 0x29, 0x6b,
  0xb9, 0xd9, 0x24, 0x71, 0xa1, 0x0e, 0x44, 0x1e, 0xd1, 0x4a, 0xdc, 0xc0,
  0xd6, 0xc6, 0x41, 0xaa, 0x81, 0x8d, 0xb2, 0xe2, 0xa8, 0xfc, 0xf7, 0xbb,
  0xf9, 0x59, 0xef, 0x47, 0x9c, 0x47, 0x35, 0xed, 0x03, 0x34, 0xc9, 0x1a,
  0xf3, 0x8d, 0x13, 0xa1, 0x22, 0x0b, 0xb8, 0x73, 0xde, 0xf4, 0xe7, 0x46,
  0xee, 0x1d, 0x11, 0xe8, 0x08, 0x5c, 0x35, 0xd2, 0x1d, 0xec, 0xc3, 0x0c,
  0x0e, 0x1c, 0x81, 0xbe, 0xf9, 0x73, 0xeb, 0x2d, 0x23, 0x0b, 0x24, 0xee,
  0x17, 0x09, 0xfd, 0x55, 0xe5, 0x28, 0x01, 0x13, 0x01, 0x1d, 0xf2, 0xe8,
  0x47, 0x1d, 0x2a, 0x16, 0x07, 0x27, 0xf7, 0xd3, 0x5d, 0x0f, 0x17, 0xbc,
  0x12, 0x7f, 0xf6, 0x32, 0x1b, 0xf7, 0x57, 0xe4, 0x15, 0xbf, 0x06, 0xb9,
  0xc8, 0x8f, 0x2f, 0x03, 0x2b, 0xed, 0xa5, 0x73, 0x00, 0xb1, 0x14, 0xdb,
  0xe1, 0x09, 0x17, 0xea, 0x35, 0x08, 0x7f, 0xa1, 0x10, 0xb5, 0xd3, 0xc4,
  0xf2, 0x3d, 0xe4, 0x56, 0x16, 0xce, 0x02, 0x2a, 0x0b, 0x2b, 0x1b, 0x34,
  0x08, 0x25, 0xf1, 0xec, 0x4b, 0x23, 0x20, 0xc0, 0x4b, 0xe4, 0x07, 0xfe,
  0x4d, 0x22, 0xdc, 0x03, 0x1a, 0x7f, 0xbc, 0x21, 0x17, 0xe8, 0x34, 0x07,
  0x64, 0x07, 0xa1, 0x3a, 0xe2, 0xb7, 0xf8, 0x60, 0x2b, 0x7f, 0xae, 0x10,
  0x59, 0x45, 0x62, 0xc7, 0x43, 0x30, 0x01, 0xde, 0x26, 0x17, 0xd8, 0xcc,
  0x56, 0x2e, 0xc9, 0xe6, 0x24, 0x0c, 0x00, 0x01, 0xea, 0x4b, 0x3b, 0x22,
  0x64, 0x08, 0x1b, 0xac, 0x3e, 0xe0, 0x1f, 0x3e, 0x81, 0xed, 0xee, 0x40,
  0x0e, 0x10, 0x1b, 0x32, 0x9e, 0x04, 0x26, 0x0b, 0x85, 0xc6, 0x5d, 0x1b,
  0xb7, 0x2e, 0x3b, 0x2a, 0xe7, 0x3d, 0x44, 0xec, 0x1a, 0xc8, 0x4c, 0xfd,
  0x7f, 0xfd, 0xe4, 0x52, 0x14, 0xe7, 0x25, 0x46, 0xf2, 0xfd, 0x39, 0x57,
  0x04, 0x0c, 0x5e, 0x2c, 0xf8, 0x9a, 0xe9, 0xbb, 0xf5, 0x4e, 0x0f, 0x7d,
  0xd4, 0x76, 0x4e, 0x81, 0x5b, 0xdc, 0x2d, 0x05, 0x1f, 0xc1, 0x52, 0x5c,
  0xf6, 0x9d, 0xe0, 0x1d, 0x39, 0x01, 0x0a, 0x1b, 0x07, 0x21, 0x30, 0x26,
  0x09, 0xa0, 0x42, 0xe4, 0xdb, 0x61, 0xc2, 0x1a, 0x3a, 0x59, 0x4f, 0x04,
  0x64, 0x7f, 0x00, 0xb9, 0x36, 0x17, 0x38, 0x43, 0x23, 0x31, 0xe3, 0x50,
  0xf3, 0x32, 0x2e, 0x3e, 0xe4, 0x2e, 0xf1, 0x45, 0xd3, 0x4d, 0x1c, 0x1d,
  0x03, 0xf9, 0x37, 0x2a, 0xa6, 0xfe, 0xff, 0xff, 0x04, 0x00, 0x00, 0x00,
  0x40, 0x00, 0x00, 0x00, 0xc6, 0x0a, 0x00, 0x00, 0x53, 0x01, 0x00, 0x00,
  0xdb, 0x0d, 0x00, 0x00, 0xe0, 0x1b, 0x00, 0x00, 0x46, 0x04, 0x00, 0x00,
  0xfa, 0xf8, 0xff, 0xff, 0x51, 0xf5, 0xff, 0xff, 0x8d, 0x05, 0x00, 0x00,
  0xea, 0x0a, 0x00, 0x00, 0x77, 0x10, 0x00, 0x00, 0x02, 0x11, 0x00, 0x00,
  0x33, 0x20, 0x00, 0x00, 0x9b, 0xf1, 0xff, 0xff, 0x9f, 0x11, 0x00, 0x00,
  0x14, 0x0c, 0x00, 0x00, 0x1a, 0x02, 0x00, 0x00, 0xf2, 0xfe, 0xff, 0xff,
  0x04, 0x00, 0x00, 0x00, 0x30, 0x00, 0x00, 0x00, 0x27, 0x48, 0x01, 0xa5,
  0xe2, 0x3d, 0xe1, 0xc5, 0xdc, 0xf6, 0x98, 0x81, 0x57, 0x21, 0x48, 0x46,
  0xfd, 0xb1, 0x24, 0x4d, 0xac, 0x81, 0x33, 0xac, 0x26, 0x7f, 0x08, 0x18,
  0xd5, 0x2d, 0x11, 0xcf, 0x91, 0x65, 0xa7, 0x19, 0x1e, 0xcb, 0xbb, 0x61,
  0x61, 0xef, 0x4c, 0x3a, 0x01, 0x81, 0x89, 0x49, 0x2e, 0xff, 0xff, 0xff,
  0x04, 0x00, 0x00, 0x00, 0x0c, 0x00, 0x00, 0x00, 0x0f, 0xfb, 0xff, 0xff,
  0x89, 0x02, 0x00, 0x00, 0xb7, 0xff, 0xff, 0xff, 0x54, 0xf3, 0xff, 0xff,
  0x58, 0xf3, 0xff, 0xff, 0x0f, 0x00, 0x00, 0x00, 0x4d, 0x4c, 0x49, 0x52,
  0x20, 0x43, 0x6f, 0x6e, 0x76, 0x65, 0x72, 0x74, 0x65, 0x64, 0x2e, 0x00,
  0x01, 0x00, 0x00, 0x00, 0x14, 0x00, 0x00, 0x00, 0x00, 0x00, 0x0e, 0x00,
  0x18, 0x00, 0x14, 0x00, 0x10, 0x00, 0x0c, 0x00, 0x08, 0x00, 0x04, 0x00,
  0x0e, 0x00, 0x00, 0x00, 0x14, 0x00, 0x00, 0x00, 0x1c, 0x00, 0x00, 0x00,
  0x7c, 0x01, 0x00, 0x00, 0x80, 0x01, 0x00, 0x00, 0x84, 0x01, 0x00, 0x00,
  0x04, 0x00, 0x00, 0x00, 0x6d, 0x61, 0x69, 0x6e, 0x00, 0x00, 0x00, 0x00,
  0x06, 0x00, 0x00, 0x00, 0x44, 0x01, 0x00, 0x00, 0xf4, 0x00, 0x00, 0x00,
  0xa8, 0x00, 0x00, 0x00, 0x70, 0x00, 0x00, 0x00, 0x34, 0x00, 0x00, 0x00,
  0x10, 0x00, 0x00, 0x00, 0x00, 0x00, 0x0a, 0x00, 0x10, 0x00, 0x0c, 0x00,
  0x08, 0x00, 0x04, 0x00, 0x0a, 0x00, 0x00, 0x00, 0x0c, 0x00, 0x00, 0x00,
  0x10, 0x00, 0x00, 0x00, 0x03, 0x00, 0x00, 0x00, 0x01, 0x00, 0x00, 0x00,
  0x0c, 0x00, 0x00, 0x00, 0x01, 0x00, 0x00, 0x00, 0x0b, 0x00, 0x00, 0x00,
  0x5a, 0xff, 0xff, 0xff, 0x1c, 0x00, 0x00, 0x00, 0x00, 0x00, 0x00, 0x09,
  0x1c, 0x00, 0x00, 0x00, 0x20, 0x00, 0x00, 0x00, 0x02, 0x00, 0x00, 0x00,
  0x00, 0x00, 0x06, 0x00, 0x08, 0x00, 0x04, 0x00, 0x06, 0x00, 0x00, 0x00,
  0x00, 0x00, 0x80, 0x3f, 0x01, 0x00, 0x00, 0x00, 0x0b, 0x00, 0x00, 0x00,
  0x01, 0x00, 0x00, 0x00, 0x0a, 0x00, 0x00, 0x00, 0x92, 0xff, 0xff, 0xff,
  0x14, 0x00, 0x00, 0x00, 0x00, 0x00, 0x00, 0x08, 0x10, 0x00, 0x00, 0x00,
  0x14, 0x00, 0x00, 0x00, 0x01, 0x00, 0x00, 0x00, 0x44, 0xf4, 0xff, 0xff,
  0x01, 0x00, 0x00, 0x00, 0x0a, 0x00, 0x00, 0x00, 0x03, 0x00, 0x00, 0x00,
  0x09, 0x00, 0x00, 0x00, 0x02, 0x00, 0x00, 0x00, 0x01, 0x00, 0x00, 0x00,
  0xc6, 0xff, 0xff, 0xff, 0x14, 0x00, 0x00, 0x00, 0x00, 0x00, 0x00, 0x08,
  0x14, 0x00, 0x00, 0x00, 0x18, 0x00, 0x00, 0x00, 0x01, 0x00, 0x00, 0x00,
  0xb6, 0xff, 0xff, 0xff, 0x00, 0x00, 0x00, 0x01, 0x01, 0x00, 0x00, 0x00,
  0x09, 0x00, 0x00, 0x00, 0x03, 0x00, 0x00, 0x00, 0x08, 0x00, 0x00, 0x00,
  0x04, 0x00, 0x00, 0x00, 0x03, 0x00, 0x00, 0x00, 0x00, 0x00, 0x0e, 0x00,
  0x1a, 0x00, 0x14, 0x00, 0x10, 0x00, 0x0c, 0x00, 0x0b, 0x00, 0x04, 0x00,
  0x0e, 0x00, 0x00, 0x00, 0x1c, 0x00, 0x00, 0x00, 0x00, 0x00, 0x00, 0x08,
  0x1c, 0x00, 0x00, 0x00, 0x20, 0x00, 0x00, 0x00, 0x01, 0x00, 0x00, 0x00,
  0x00, 0x00, 0x06, 0x00, 0x08, 0x00, 0x07, 0x00, 0x06, 0x00, 0x00, 0x00,
  0x00, 0x00, 0x00, 0x01, 0x01, 0x00, 0x00, 0x00, 0x08, 0x00, 0x00, 0x00,
  0x03, 0x00, 0x00, 0x00, 0x07, 0x00, 0x00, 0x00, 0x06, 0x00, 0x00, 0x00,
  0x05, 0x00, 0x00, 0x00, 0x00, 0x00, 0x0a, 0x00, 0x0c, 0x00, 0x00, 0x00,
  0x08, 0x00, 0x04, 0x00, 0x0a, 0x00, 0x00, 0x00, 0x08, 0x00, 0x00, 0x00,
  0x0c, 0x00, 0x00, 0x00, 0x01, 0x00, 0x00, 0x00, 0x07, 0x00, 0x00, 0x00,
  0x01, 0x00, 0x00, 0x00, 0x00, 0x00, 0x00, 0x00, 0x01, 0x00, 0x00, 0x00,
  0x0c, 0x00, 0x00, 0x00, 0x01, 0x00, 0x00, 0x00, 0x00, 0x00, 0x00, 0x00,
  0x0d, 0x00, 0x00, 0x00, 0xb4, 0x0a, 0x00, 0x00, 0x14, 0x0a, 0x00, 0x00,
  0x7c, 0x09, 0x00, 0x00, 0x68, 0x08, 0x00, 0x00, 0x4c, 0x07, 0x00, 0x00,
  0x78, 0x05, 0x00, 0x00, 0x9c, 0x03, 0x00, 0x00, 0x28, 0x03, 0x00, 0x00,
  0x4c, 0x02, 0x00, 0x00, 0x88, 0x01, 0x00, 0x00, 0xe4, 0x00, 0x00, 0x00,
  0x60, 0x00, 0x00, 0x00, 0x04, 0x00, 0x00, 0x00, 0x96, 0xf5, 0xff, 0xff,
  0x00, 0x00, 0x00, 0x01, 0x14, 0x00, 0x00, 0x00, 0x1c, 0x00, 0x00, 0x00,
  0x1c, 0x00, 0x00, 0x00, 0x0d, 0x00, 0x00, 0x00, 0x34, 0x00, 0x00, 0x00,
  0x02, 0x00, 0x00, 0x00, 0xff, 0xff, 0xff, 0xff, 0x03, 0x00, 0x00, 0x00,
  0x80, 0xf5, 0xff, 0xff, 0x1b, 0x00, 0x00, 0x00, 0x53, 0x74, 0x61, 0x74,
  0x65, 0x66, 0x75, 0x6c, 0x50, 0x61, 0x72, 0x74, 0x69, 0x74, 0x69, 0x6f,
  0x6e, 0x65, 0x64, 0x43, 0x61, 0x6c, 0x6c, 0x5f, 0x31, 0x3a, 0x30, 0x00,
  0x02, 0x00, 0x00, 0x00, 0x01, 0x00, 0x00, 0x00, 0x03, 0x00, 0x00, 0x00,
  0x5e, 0xfd, 0xff, 0xff, 0x00, 0x00, 0x00, 0x01, 0x18, 0x00, 0x00, 0x00,
  0x20, 0x00, 0x00, 0x00, 0x40, 0x00, 0x00, 0x00, 0x0c, 0x00, 0x00, 0x00,
  0x00, 0x00, 0x00, 0x09, 0x58, 0x00, 0x00, 0x00, 0x02, 0x00, 0x00, 0x00,
  0xff, 0xff, 0xff, 0xff, 0x03, 0x00, 0x00, 0x00, 0x84, 0xf6, 0xff, 0xff,
  0x08, 0x00, 0x00, 0x00, 0x14, 0x00, 0x00, 0x00, 0x01, 0x00, 0x00, 0x00,
  0x80, 0xff, 0xff, 0xff, 0xff, 0xff, 0xff, 0xff, 0x00, 0x00, 0x00, 0x00,
  0x01, 0x00, 0x00, 0x00, 0x00, 0x00, 0x80, 0x3b, 0x1c, 0x00, 0x00, 0x00,
  0x53, 0x74, 0x61, 0x74, 0x65, 0x66, 0x75, 0x6c, 0x50, 0x61, 0x72, 0x74,
  0x69, 0x74, 0x69, 0x6f, 0x6e, 0x65, 0x64, 0x43, 0x61, 0x6c, 0x6c, 0x5f,
  0x31, 0x3a, 0x30, 0x31, 0x00, 0x00, 0x00, 0x00, 0x02, 0x00, 0x00, 0x00,
  0x01, 0x00, 0x00, 0x00, 0x03, 0x00, 0x00, 0x00, 0xde, 0xfd, 0xff, 0xff,
  0x00, 0x00, 0x00, 0x01, 0x18, 0x00, 0x00, 0x00, 0x20, 0x00, 0x00, 0x00,
  0x3c, 0x00, 0x00, 0x00, 0x0b, 0x00, 0x00, 0x00, 0x00, 0x00, 0x00, 0x09,
  0x78, 0x00, 0x00, 0x00, 0x02, 0x00, 0x00, 0x00, 0xff, 0xff, 0xff, 0xff,
  0x03, 0x00, 0x00, 0x00, 0x04, 0xf7, 0xff, 0xff, 0x08, 0x00, 0x00, 0x00,
  0x10, 0x00, 0x00, 0x00, 0x01, 0x00, 0x00, 0x00, 0xda, 0xff, 0xff, 0xff,
  0xff, 0xff, 0xff, 0xff, 0x01, 0x00, 0x00, 0x00, 0xb2, 0xdc, 0x14, 0x3e,
  0x40, 0x00, 0x00, 0x00, 0x73, 0x65, 0x71, 0x75, 0x65, 0x6e, 0x74, 0x69,
  0x61, 0x6c, 0x5f, 0x31, 0x5f, 0x31, 0x2f, 0x64, 0x65, 0x6e, 0x73, 0x65,
  0x5f, 0x35, 0x5f, 0x31, 0x2f, 0x4d, 0x61, 0x74, 0x4d, 0x75, 0x6c, 0x3b,
  0x73, 0x65, 0x71, 0x75, 0x65, 0x6e, 0x74, 0x69, 0x61, 0x6c, 0x5f, 0x31,
  0x5f, 0x31, 0x2f, 0x64, 0x65, 0x6e, 0x73, 0x65, 0x5f, 0x35, 0x5f, 0x31,
  0x2f, 0x42, 0x69, 0x61, 0x73, 0x41, 0x64, 0x64, 0x00, 0x00, 0x00, 0x00,
  0x02, 0x00, 0x00, 0x00, 0x01, 0x00, 0x00, 0x00, 0x03, 0x00, 0x00, 0x00,
  0x7e, 0xfe, 0xff, 0xff, 0x00, 0x00, 0x00, 0x01, 0x18, 0x00, 0x00, 0x00,
  0x20, 0x00, 0x00, 0x00, 0x40, 0x00, 0x00, 0x00, 0x0a, 0x00, 0x00, 0x00,
  0x00, 0x00, 0x00, 0x09, 0x98, 0x00, 0x00, 0x00, 0x02, 0x00, 0x00, 0x00,
  0xff, 0xff, 0xff, 0xff, 0x10, 0x00, 0x00, 0x00, 0xa4, 0xf7, 0xff, 0xff,
  0x08, 0x00, 0x00, 0x00, 0x14, 0x00, 0x00, 0x00, 0x01, 0x00, 0x00, 0x00,
  0x80, 0xff, 0xff, 0xff, 0xff, 0xff, 0xff, 0xff, 0x00, 0x00, 0x00, 0x00,
  0x01, 0x00, 0x00, 0x00, 0xde, 0x4d, 0xce, 0x3c, 0x5e, 0x00, 0x00, 0x00,
  0x73, 0x65, 0x71, 0x75, 0x65, 0x6e, 0x74, 0x69, 0x61, 0x6c, 0x5f, 0x31,
  0x5f, 0x31, 0x2f, 0x64, 0x65, 0x6e, 0x73, 0x65, 0x5f, 0x34, 0x5f, 0x31,
  0x2f, 0x4d, 0x61, 0x74, 0x4d, 0x75, 0x6c, 0x3b, 0x73, 0x65, 0x71, 0x75,
  0x65, 0x6e, 0x74, 0x69, 0x61, 0x6c, 0x5f, 0x31, 0x5f, 0x31, 0x2f, 0x64,
  0x65, 0x6e, 0x73, 0x65, 0x5f, 0x34, 0x5f, 0x31, 0x2f, 0x52, 0x65, 0x6c,
  0x75, 0x3b, 0x73, 0x65, 0x71, 0x75, 0x65, 0x6e, 0x74, 0x69, 0x61, 0x6c,
  0x5f, 0x31, 0x5f, 0x31, 0x2f, 0x64, 0x65, 0x6e, 0x73, 0x65, 0x5f, 0x34,
  0x5f, 0x31, 0x2f, 0x42, 0x69, 0x61, 0x73, 0x41, 0x64, 0x64, 0x00, 0x00,
  0x02, 0x00, 0x00, 0x00, 0x01, 0x00, 0x00, 0x00, 0x10, 0x00, 0x00, 0x00,
  0x3e, 0xff, 0xff, 0xff, 0x00, 0x00, 0x00, 0x01, 0x18, 0x00, 0x00, 0x00,
  0x20, 0x00, 0x00, 0x00, 0x40, 0x00, 0x00, 0x00, 0x09, 0x00, 0x00, 0x00,
  0x00, 0x00, 0x00, 0x09, 0x98, 0x00, 0x00, 0x00, 0x02, 0x00, 0x00, 0x00,
  0xff, 0xff, 0xff, 0xff, 0x20, 0x00, 0x00, 0x00, 0x64, 0xf8, 0xff, 0xff,
  0x08, 0x00, 0x00, 0x00, 0x14, 0x00, 0x00, 0x00, 0x01, 0x00, 0x00, 0x00,
  0x80, 0xff, 0xff, 0xff, 0xff, 0xff, 0xff, 0xff, 0x00, 0x00, 0x00, 0x00,
  0x01, 0x00, 0x00, 0x00, 0x86, 0x0e, 0x36, 0x3c, 0x5e, 0x00, 0x00, 0x00,
  0x73, 0x65, 0x71, 0x75, 0x65, 0x6e, 0x74, 0x69, 0x61, 0x6c, 0x5f, 0x31,
  0x5f, 0x31, 0x2f, 0x64, 0x65, 0x6e, 0x73, 0x65, 0x5f, 0x33, 0x5f, 0x31,
  0x2f, 0x4d, 0x61, 0x74, 0x4d, 0x75, 0x6c, 0x3b, 0x73, 0x65, 0x71, 0x75,
  0x65, 0x6e, 0x74, 0x69, 0x61, 0x6c, 0x5f, 0x31, 0x5f, 0x31, 0x2f, 0x64,
  0x65, 0x6e, 0x73, 0x65, 0x5f, 0x33, 0x5f, 0x31, 0x2f, 0x52, 0x65, 0x6c,
  0x75, 0x3b, 0x73, 0x65, 0x71, 0x75, 0x65, 0x6e, 0x74, 0x69, 0x61, 0x6c,
  0x5f, 0x31, 0x5f, 0x31, 0x2f, 0x64, 0x65, 0x6e, 0x73, 0x65, 0x5f, 0x33,
  0x5f, 0x31, 0x2f, 0x42, 0x69, 0x61, 0x73, 0x41, 0x64, 0x64, 0x00, 0x00,
  0x02, 0x00, 0x00, 0x00, 0x01, 0x00, 0x00, 0x00, 0x20, 0x00, 0x00, 0x00,
  0x00, 0x00, 0x16, 0x00, 0x20, 0x00, 0x1c, 0x00, 0x1b, 0x00, 0x14, 0x00,
  0x10, 0x00, 0x0c, 0x00, 0x00, 0x00, 0x00, 0x00, 0x08, 0x00, 0x07, 0x00,
  0x16, 0x00, 0x00, 0x00, 0x00, 0x00, 0x00, 0x01, 0x18, 0x00, 0x00, 0x00,
  0x20, 0x00, 0x00, 0x00, 0x40, 0x00, 0x00, 0x00, 0x08, 0x00, 0x00, 0x00,
  0x00, 0x00, 0x00, 0x09, 0x48, 0x00, 0x00, 0x00, 0x02, 0x00, 0x00, 0x00,
  0xff, 0xff, 0xff, 0xff, 0x14, 0x00, 0x00, 0x00, 0x3c, 0xf9, 0xff, 0xff,
  0x08, 0x00, 0x00, 0x00, 0x14, 0x00, 0x00, 0x00, 0x01, 0x00, 0x00, 0x00,
  0x11, 0x00, 0x00, 0x00, 0x00, 0x00, 0x00, 0x00, 0x00, 0x00, 0x00, 0x00,
  0x01, 0x00, 0x00, 0x00, 0x3f, 0x45, 0xc8, 0x3c, 0x0c, 0x00, 0x00, 0x00,
  0x74, 0x66, 0x6c, 0x2e, 0x71, 0x75, 0x61, 0x6e, 0x74, 0x69, 0x7a, 0x65,
  0x00, 0x00, 0x00, 0x00, 0x02, 0x00, 0x00, 0x00, 0x01, 0x00, 0x00, 0x00,
  0x14, 0x00, 0x00, 0x00, 0xb2, 0xf9, 0xff, 0xff, 0x00, 0x00, 0x00, 0x01,
  0x14, 0x00, 0x00, 0x00, 0xa8, 0x01, 0x00, 0x00, 0x07, 0x00, 0x00, 0x00,
  0x00, 0x00, 0x00, 0x09, 0xb4, 0x01, 0x00, 0x00, 0x9c, 0xf9, 0xff, 0xff,
  0x08, 0x00, 0x00, 0x00, 0x0c, 0x01, 0x00, 0x00, 0x20, 0x00, 0x00, 0x00,
  0x00, 0x00, 0x00, 0x00, 0x00, 0x00, 0x00, 0x00, 0x00, 0x00, 0x00, 0x00,
  0x00, 0x00, 0x00, 0x00, 0x00, 0x00, 0x00, 0x00, 0x00, 0x00, 0x00, 0x00,
  0x00, 0x00, 0x00, 0x00, 0x00, 0x00, 0x00, 0x00, 0x00, 0x00, 0x00, 0x00,
  0x00, 0x00, 0x00, 0x00, 0x00, 0x00, 0x00, 0x00, 0x00, 0x00, 0x00, 0x00,
  0x00, 0x00, 0x00, 0x00, 0x00, 0x00, 0x00, 0x00, 0x00, 0x00, 0x00, 0x00,
  0x00, 0x00, 0x00, 0x00, 0x00, 0x00, 0x00, 0x00, 0x00, 0x00, 0x00, 0x00,
  0x00, 0x00, 0x00, 0x00, 0x00, 0x00, 0x00, 0x00, 0x00, 0x00, 0x00, 0x00,
  0x00, 0x00, 0x00, 0x00, 0x00, 0x00, 0x00, 0x00, 0x00, 0x00, 0x00, 0x00,
  0x00, 0x00, 0x00, 0x00, 0x00, 0x00, 0x00, 0x00, 0x00, 0x00, 0x00, 0x00,
  0x00, 0x00, 0x00, 0x00, 0x00, 0x00, 0x00, 0x00, 0x00, 0x00, 0x00, 0x00,
  0x00, 0x00, 0x00, 0x00, 0x00, 0x00, 0x00, 0x00, 0x00, 0x00, 0x00, 0x00,
  0x00, 0x00, 0x00, 0x00, 0x00, 0x00, 0x00, 0x00, 0x00, 0x00, 0x00, 0x00,
  0x00, 0x00, 0x00, 0x00, 0x00, 0x00, 0x00, 0x00, 0x00, 0x00, 0x00, 0x00,
  0x00, 0x00, 0x00, 0x00, 0x00, 0x00, 0x00, 0x00, 0x00, 0x00, 0x00, 0x00,
  0x00, 0x00, 0x00, 0x00, 0x00, 0x00, 0x00, 0x00, 0x00, 0x00, 0x00, 0x00,
  0x00, 0x00, 0x00, 0x00, 0x00, 0x00, 0x00, 0x00, 0x00, 0x00, 0x00, 0x00,
  0x00, 0x00, 0x00, 0x00, 0x00, 0x00, 0x00, 0x00, 0x00, 0x00, 0x00, 0x00,
  0x00, 0x00, 0x00, 0x00, 0x00, 0x00, 0x00, 0x00, 0x00, 0x00, 0x00, 0x00,
  0x00, 0x00, 0x00, 0x00, 0x00, 0x00, 0x00, 0x00, 0x00, 0x00, 0x00, 0x00,
  0x00, 0x00, 0x00, 0x00, 0x00, 0x00, 0x00, 0x00, 0x00, 0x00, 0x00, 0x00,
  0x00, 0x00, 0x00, 0x00, 0x00, 0x00, 0x00, 0x00, 0x00, 0x00, 0x00, 0x00,
  0x00, 0x00, 0x00, 0x00, 0x00, 0x00, 0x00, 0x00, 0x20, 0x00, 0x00, 0x00,
  0x1d, 0x45, 0x96, 0x3b, 0xfc, 0xe4, 0x80, 0x3b, 0xb5, 0x35, 0x9c, 0x3b,
  0x9e, 0xa9, 0x71, 0x3b, 0x6d, 0x19, 0xb8, 0x3b, 0x08, 0x6d, 0x32, 0x3b,
  0xad, 0xf9, 0x5e, 0x3b, 0x50, 0xd8, 0xc9, 0x3b, 0xa7, 0x8a, 0x74, 0x3b,
  0x78, 0xea, 0x77, 0x3b, 0xbe, 0x05, 0xb0, 0x3b, 0xba, 0x3c, 0x74, 0x3b,
  0x9a, 0x54, 0xb8, 0x3b, 0xda, 0xff, 0x3f, 0x3b, 0x7d, 0x62, 0x91, 0x3b,
  0x29, 0x83, 0x96, 0x3b, 0x08, 0x40, 0x27, 0x3b, 0x48, 0xb4, 0x2a, 0x3b,
  0xda, 0xaf, 0x4a, 0x3b, 0x83, 0x4d, 0xa4, 0x3b, 0x55, 0x7c, 0x55, 0x3b,
  0xdc, 0x0e, 0x26, 0x3b, 0x44, 0x78, 0x79, 0x3b, 0x5e, 0x7c, 0xb2, 0x3b,
  0xc3, 0xfc, 0x67, 0x3b, 0xb9, 0x15, 0x72, 0x3b, 0x1e, 0xac, 0x9d, 0x3b,
  0xcc, 0x09, 0xc1, 0x3b, 0x8e, 0x1a, 0x2d, 0x3b, 0x8e, 0x9f, 0x7e, 0x3b,
  0x36, 0xc8, 0x69, 0x3b, 0x6d, 0x1b, 0x9c, 0x3b, 0x12, 0x00, 0x00, 0x00,
  0x74, 0x66, 0x6c, 0x2e, 0x70, 0x73, 0x65, 0x75, 0x64, 0x6f, 0x5f, 0x71,
  0x63, 0x6f, 0x6e, 0x73, 0x74, 0x35, 0x00, 0x00, 0x02, 0x00, 0x00, 0x00,
  0x20, 0x00, 0x00, 0x00, 0x14, 0x00, 0x00, 0x00, 0x8a, 0xfb, 0xff, 0xff,
  0x00, 0x00, 0x00, 0x01, 0x14, 0x00, 0x00, 0x00, 0xa4, 0x01, 0x00, 0x00,
  0x06, 0x00, 0x00, 0x00, 0x00, 0x00, 0x00, 0x02, 0xb0, 0x01, 0x00, 0x00,
  0x74, 0xfb, 0xff, 0xff, 0x08, 0x00, 0x00, 0x00, 0x08, 0x01, 0x00, 0x00,
  0x20, 0x00, 0x00, 0x00, 0x00, 0x00, 0x00, 0x00, 0x00, 0x00, 0x00, 0x00,
  0x00, 0x00, 0x00, 0x00, 0x00, 0x00, 0x00, 0x00, 0x00, 0x00, 0x00, 0x00,
  0x00, 0x00, 0x00, 0x00, 0x00, 0x00, 0x00, 0x00, 0x00, 0x00, 0x00, 0x00,
  0x00, 0x00, 0x00, 0x00, 0x00, 0x00, 0x00, 0x00, 0x00, 0x00, 0x00, 0x00,
  0x00, 0x00, 0x00, 0x00, 0x00, 0x00, 0x00, 0x00, 0x00, 0x00, 0x00, 0x00,
  0x00, 0x00, 0x00, 0x00, 0x00, 0x00, 0x00, 0x00, 0x00, 0x00, 0x00, 0x00,
  0x00, 0x00, 0x00, 0x00, 0x00, 0x00, 0x00, 0x00, 0x00, 0x00, 0x00, 0x00,
  0x00, 0x00, 0x00, 0x00, 0x00, 0x00, 0x00, 0x00, 0x00, 0x00, 0x00, 0x00,
  0x00, 0x00, 0x00, 0x00, 0x00, 0x00, 0x00, 0x00, 0x00, 0x00, 0x00, 0x00,
  0x00, 0x00, 0x00, 0x00, 0x00, 0x00, 0x00, 0x00, 0x00, 0x00, 0x00, 0x00,
  0x00, 0x00, 0x00, 0x00, 0x00, 0x00, 0x00, 0x00, 0x00, 0x00, 0x00, 0x00,
  0x00, 0x00, 0x00, 0x00, 0x00, 0x00, 0x00, 0x00, 0x00, 0x00, 0x00, 0x00,
  0x00, 0x00, 0x00, 0x00, 0x00, 0x00, 0x00, 0x00, 0x00, 0x00, 0x00, 0x00,
  0x00, 0x00, 0x00, 0x00, 0x00, 0x00, 0x00, 0x00, 0x00, 0x00, 0x00, 0x00,
  0x00, 0x00, 0x00, 0x00, 0x00, 0x00, 0x00, 0x00, 0x00, 0x00, 0x00, 0x00,
  0x00, 0x00, 0x00, 0x00, 0x00, 0x00, 0x00, 0x00, 0x00, 0x00, 0x00, 0x00,
  0x00, 0x00, 0x00, 0x00, 0x00, 0x00, 0x00, 0x00, 0x00, 0x00, 0x00, 0x00,
  0x00, 0x00, 0x00, 0x00, 0x00, 0x00, 0x00, 0x00, 0x00, 0x00, 0x00, 0x00,
  0x00, 0x00, 0x00, 0x00, 0x00, 0x00, 0x00, 0x00, 0x00, 0x00, 0x00, 0x00,
  0x00, 0x00, 0x00, 0x00, 0x00, 0x00, 0x00, 0x00, 0x00, 0x00, 0x00, 0x00,
  0x00, 0x00, 0x00, 0x00, 0x00, 0x00, 0x00, 0x00, 0x00, 0x00, 0x00, 0x00,
  0x00, 0x00, 0x00, 0x00, 0x00, 0x00, 0x00, 0x00, 0x20, 0x00, 0x00, 0x00,
  0x49, 0x1d, 0xeb, 0x38, 0x85, 0xab, 0xc9, 0x38, 0x6d, 0x68, 0xf4, 0x38,
  0xe2, 0x0d, 0xbd, 0x38, 0xa9, 0x05, 0x10, 0x39, 0x72, 0x95, 0x8b, 0x38,
  0x5f, 0x6f, 0xae, 0x38, 0x97, 0xe7, 0x1d, 0x39, 0x78, 0x4e, 0xbf, 0x38,
  0x3d, 0xf2, 0xc1, 0x38, 0x19, 0xb4, 0x09, 0x39, 0x82, 0x11, 0xbf, 0x38,
  0xf4, 0x33, 0x10, 0x39, 0xd2, 0x33, 0x96, 0x38, 0x8a, 0x78, 0xe3, 0x38,
  0x5d, 0x7e, 0xeb, 0x38, 0x44, 0xd7, 0x82, 0x38, 0x05, 0x8b, 0x85, 0x38,
  0x36, 0x90, 0x9e, 0x38, 0x00, 0x89, 0x00, 0x39, 0xe1, 0x02, 0xa7, 0x38,
  0x87, 0xe8, 0x81, 0x38, 0x70, 0x29, 0xc3, 0x38, 0x71, 0xa1, 0x0b, 0x39,
  0x39, 0x7c, 0xb5, 0x38, 0x74, 0x62, 0xbd, 0x38, 0x3b, 0xb2, 0xf6, 0x38,
  0xdf, 0x03, 0x17, 0x39, 0x92, 0x6b, 0x87, 0x38, 0x87, 0x31, 0xc7, 0x38,
  0xa7, 0xe3, 0xb6, 0x38, 0x4e, 0x3f, 0xf4, 0x38, 0x12, 0x00, 0x00, 0x00,
  0x74, 0x66, 0x6c, 0x2e, 0x70, 0x73, 0x65, 0x75, 0x64, 0x6f, 0x5f, 0x71,
  0x63, 0x6f, 0x6e, 0x73, 0x74, 0x34, 0x00, 0x00, 0x01, 0x00, 0x00, 0x00,
  0x20, 0x00, 0x00, 0x00, 0x5a, 0xfd, 0xff, 0xff, 0x00, 0x00, 0x00, 0x01,
  0x14, 0x00, 0x00, 0x00, 0xe8, 0x00, 0x00, 0x00, 0x05, 0x00, 0x00, 0x00,
  0x00, 0x00, 0x00, 0x09, 0xf4, 0x00, 0x00, 0x00, 0x44, 0xfd, 0xff, 0xff,
  0x08, 0x00, 0x00, 0x00, 0x8c, 0x00, 0x00, 0x00, 0x10, 0x00, 0x00, 0x00,
  0x00, 0x00, 0x00, 0x00, 0x00, 0x00, 0x00, 0x00, 0x00, 0x00, 0x00, 0x00,
  0x00, 0x00, 0x00, 0x00, 0x00, 0x00, 0x00, 0x00, 0x00, 0x00, 0x00, 0x00,
  0x00, 0x00, 0x00, 0x00, 0x00, 0x00, 0x00, 0x00, 0x00, 0x00, 0x00, 0x00,
  0x00, 0x00, 0x00, 0x00, 0x00, 0x00, 0x00, 0x00, 0x00, 0x00, 0x00, 0x00,
  0x00, 0x00, 0x00, 0x00, 0x00, 0x00, 0x00, 0x00, 0x00, 0x00, 0x00, 0x00,
  0x00, 0x00, 0x00, 0x00, 0x00, 0x00, 0x00, 0x00, 0x00, 0x00, 0x00, 0x00,
  0x00, 0x00, 0x00, 0x00, 0x00, 0x00, 0x00, 0x00, 0x00, 0x00, 0x00, 0x00,
  0x00, 0x00, 0x00, 0x00, 0x00, 0x00, 0x00, 0x00, 0x00, 0x00, 0x00, 0x00,
  0x00, 0x00, 0x00, 0x00, 0x00, 0x00, 0x00, 0x00, 0x00, 0x00, 0x00, 0x00,
  0x00, 0x00, 0x00, 0x00, 0x00, 0x00, 0x00, 0x00, 0x00, 0x00, 0x00, 0x00,
  0x00, 0x00, 0x00, 0x00, 0x00, 0x00, 0x00, 0x00, 0x00, 0x00, 0x00, 0x00,
  0x10, 0x00, 0x00, 0x00, 0x7f, 0x2f, 0x8c, 0x3b, 0xec, 0x29, 0xa2, 0x3b,
  0xd5, 0xab, 0xb4, 0x3b, 0xf6, 0x15, 0x95, 0x3b, 0x2a, 0x59, 0x77, 0x3b,
  0x00, 0xba, 0xd5, 0x3b, 0xa8, 0x6e, 0x49, 0x3b, 0x7f, 0x3b, 0xc5, 0x3b,
  0xc6, 0xbc, 0xc0, 0x3b, 0xa4, 0x00, 0x0d, 0x3c, 0x3d, 0x76, 0xf6, 0x3b,
  0xb1, 0x57, 0xbf, 0x3b, 0x1e, 0x81, 0xfb, 0x3b, 0xd3, 0xb2, 0xbb, 0x3b,
  0xc5, 0x5e, 0xb3, 0x3b, 0xfd, 0xcb, 0xc3, 0x3b, 0x12, 0x00, 0x00, 0x00,
  0x74, 0x66, 0x6c, 0x2e, 0x70, 0x73, 0x65, 0x75, 0x64, 0x6f, 0x5f, 0x71,
  0x63, 0x6f, 0x6e, 0x73, 0x74, 0x33, 0x00, 0x00, 0x02, 0x00, 0x00, 0x00,
  0x10, 0x00, 0x00, 0x00, 0x20, 0x00, 0x00, 0x00, 0x72, 0xfe, 0xff, 0xff,
  0x00, 0x00, 0x00, 0x01, 0x14, 0x00, 0x00, 0x00, 0xe4, 0x00, 0x00, 0x00,
  0x04, 0x00, 0x00, 0x00, 0x00, 0x00, 0x00, 0x02, 0xf0, 0x00, 0x00, 0x00,
  0x5c, 0xfe, 0xff, 0xff, 0x08, 0x00, 0x00, 0x00, 0x88, 0x00, 0x00, 0x00,
  0x10, 0x00, 0x00, 0x00, 0x00, 0x00, 0x00, 0x00, 0x00, 0x00, 0x00, 0x00,
  0x00, 0x00, 0x00, 0x00, 0x00, 0x00, 0x00, 0x00, 0x00, 0x00, 0x00, 0x00,
  0x00, 0x00, 0x00, 0x00, 0x00, 0x00, 0x00, 0x00, 0x00, 0x00, 0x00, 0x00,
  0x00, 0x00, 0x00, 0x00, 0x00, 0x00, 0x00, 0x00, 0x00, 0x00, 0x00, 0x00,
  0x00, 0x00, 0x00, 0x00, 0x00, 0x00, 0x00, 0x00, 0x00, 0x00, 0x00, 0x00,
  0x00, 0x00, 0x00, 0x00, 0x00, 0x00, 0x00, 0x00, 0x00, 0x00, 0x00, 0x00,
  0x00, 0x00, 0x00, 0x00, 0x00, 0x00, 0x00, 0x00, 0x00, 0x00, 0x00, 0x00,
  0x00, 0x00, 0x00, 0x00, 0x00, 0x00, 0x00, 0x00, 0x00, 0x00, 0x00, 0x00,
  0x00, 0x00, 0x00, 0x00, 0x00, 0x00, 0x00, 0x00, 0x00, 0x00, 0x00, 0x00,
  0x00, 0x00, 0x00, 0x00, 0x00, 0x00, 0x00, 0x00, 0x00, 0x00, 0x00, 0x00,
  0x00, 0x00, 0x00, 0x00, 0x00, 0x00, 0x00, 0x00, 0x00, 0x00, 0x00, 0x00,
  0x10, 0x00, 0x00, 0x00, 0x71, 0x63, 0x47, 0x38, 0x02, 0xa6, 0x66, 0x38,
  0x69, 0x7c, 0x80, 0x38, 0x24, 0x0c, 0x54, 0x38, 0x6c, 0xe7, 0x2f, 0x38,
  0x5c, 0xfe, 0x97, 0x38, 0x19, 0x40, 0x0f, 0x38, 0x7d, 0x43, 0x8c, 0x38,
  0x24, 0x11, 0x89, 0x38, 0xe9, 0x8c, 0xc8, 0x38, 0x0b, 0x46, 0xaf, 0x38,
  0x33, 0x13, 0x88, 0x38, 0x10, 0xdc, 0xb2, 0x38, 0xc8, 0x7b, 0x85, 0x38,
  0x1a, 0x1f, 0x7f, 0x38, 0x22, 0x3e, 0x8b, 0x38, 0x12, 0x00, 0x00, 0x00,
  0x74, 0x66, 0x6c, 0x2e, 0x70, 0x73, 0x65, 0x75, 0x64, 0x6f, 0x5f, 0x71,
  0x63, 0x6f, 0x6e, 0x73, 0x74, 0x32, 0x00, 0x00, 0x01, 0x00, 0x00, 0x00,
  0x10, 0x00, 0x00, 0x00, 0x82, 0xff, 0xff, 0xff, 0x00, 0x00, 0x00, 0x01,
  0x14, 0x00, 0x00, 0x00, 0x4c, 0x00, 0x00, 0x00, 0x03, 0x00, 0x00, 0x00,
  0x00, 0x00, 0x00, 0x09, 0x58, 0x00, 0x00, 0x00, 0x6c, 0xff, 0xff, 0xff,
  0x08, 0x00, 0x00, 0x00, 0x24, 0x00, 0x00, 0x00, 0x03, 0x00, 0x00, 0x00,
  0x00, 0x00, 0x00, 0x00, 0x00, 0x00, 0x00, 0x00, 0x00, 0x00, 0x00, 0x00,
  0x00, 0x00, 0x00, 0x00, 0x00, 0x00, 0x00, 0x00, 0x00, 0x00, 0x00, 0x00,
  0x00, 0x00, 0x00, 0x00, 0x03, 0x00, 0x00, 0x00, 0xbd, 0x80, 0x3a, 0x3c,
  0xf9, 0x86, 0xfb, 0x3b, 0x46, 0x7d, 0xd3, 0x3b, 0x12, 0x00, 0x00, 0x00,
  0x74, 0x66, 0x6c, 0x2e, 0x70, 0x73, 0x65, 0x75, 0x64, 0x6f, 0x5f, 0x71,
  0x63, 0x6f, 0x6e, 0x73, 0x74, 0x31, 0x00, 0x00, 0x02, 0x00, 0x00, 0x00,
  0x03, 0x00, 0x00, 0x00, 0x10, 0x00, 0x00, 0x00, 0x00, 0x00, 0x16, 0x00,
  0x1c, 0x00, 0x18, 0x00, 0x17, 0x00, 0x10, 0x00, 0x0c, 0x00, 0x08, 0x00,
  0x00, 0x00, 0x00, 0x00, 0x00, 0x00, 0x07, 0x00, 0x16, 0x00, 0x00, 0x00,
  0x00, 0x00, 0x00, 0x01, 0x20, 0x00, 0x00, 0x00, 0x58, 0x00, 0x00, 0x00,
  0x02, 0x00, 0x00, 0x00, 0x00, 0x00, 0x00, 0x02, 0x64, 0x00, 0x00, 0x00,
  0x0c, 0x00, 0x0c, 0x00, 0x00, 0x00, 0x00, 0x00, 0x08, 0x00, 0x04, 0x00,
  0x0c, 0x00, 0x00, 0x00, 0x08, 0x00, 0x00, 0x00, 0x24, 0x00, 0x00, 0x00,
  0x03, 0x00, 0x00, 0x00, 0x00, 0x00, 0x00, 0x00, 0x00, 0x00, 0x00, 0x00,
  0x00, 0x00, 0x00, 0x00, 0x00, 0x00, 0x00, 0x00, 0x00, 0x00, 0x00, 0x00,
  0x00, 0x00, 0x00, 0x00, 0x00, 0x00, 0x00, 0x00, 0x03, 0x00, 0x00, 0x00,
  0x53, 0x4c, 0x96, 0x39, 0x1e, 0xb3, 0x4a, 0x39, 0x22, 0x6f, 0x2a, 0x39,
  0x11, 0x00, 0x00, 0x00, 0x74, 0x66, 0x6c, 0x2e, 0x70, 0x73, 0x65, 0x75,
  0x64, 0x6f, 0x5f, 0x71, 0x63, 0x6f, 0x6e, 0x73, 0x74, 0x00, 0x00, 0x00,
  0x01, 0x00, 0x00, 0x00, 0x03, 0x00, 0x00, 0x00, 0x00, 0x00, 0x16, 0x00,
  0x1c, 0x00, 0x18, 0x00, 0x00, 0x00, 0x14, 0x00, 0x10, 0x00, 0x0c, 0x00,
  0x00, 0x00, 0x00, 0x00, 0x08, 0x00, 0x07, 0x00, 0x16, 0x00, 0x00, 0x00,
  0x00, 0x00, 0x00, 0x01, 0x14, 0x00, 0x00, 0x00, 0x20, 0x00, 0x00, 0x00,
  0x20, 0x00, 0x00, 0x00, 0x01, 0x00, 0x00, 0x00, 0x40, 0x00, 0x00, 0x00,
  0x02, 0x00, 0x00, 0x00, 0xff, 0xff, 0xff, 0xff, 0x14, 0x00, 0x00, 0x00,
  0x04, 0x00, 0x04, 0x00, 0x04, 0x00, 0x00, 0x00, 0x20, 0x00, 0x00, 0x00,
  0x73, 0x65, 0x72, 0x76, 0x69, 0x6e, 0x67, 0x5f, 0x64, 0x65, 0x66, 0x61,
  0x75, 0x6c, 0x74, 0x5f, 0x6b, 0x65, 0x72, 0x61, 0x73, 0x5f, 0x74, 0x65,
  0x6e, 0x73, 0x6f, 0x72, 0x5f, 0x35, 0x3a, 0x30, 0x00, 0x00, 0x00, 0x00,
  0x02, 0x00, 0x00, 0x00, 0x01, 0x00, 0x00, 0x00, 0x14, 0x00, 0x00, 0x00,
  0x04, 0x00, 0x00, 0x00, 0x58, 0x00, 0x00, 0x00, 0x38, 0x00, 0x00, 0x00,
  0x18, 0x00, 0x00, 0x00, 0x04, 0x00, 0x00, 0x00, 0xe0, 0xff, 0xff, 0xff,
  0x06, 0x00, 0x00, 0x00, 0x02, 0x00, 0x00, 0x00, 0x00, 0x00, 0x00, 0x06,
  0xf0, 0xff, 0xff, 0xff, 0x19, 0x00, 0x00, 0x00, 0x02, 0x00, 0x00, 0x00,
  0x00, 0x00, 0x00, 0x19, 0x0c, 0x00, 0x10, 0x00, 0x0f, 0x00, 0x00, 0x00,
  0x08, 0x00, 0x04, 0x00, 0x0c, 0x00, 0x00, 0x00, 0x09, 0x00, 0x00, 0x00,
  0x04, 0x00, 0x00, 0x00, 0x00, 0x00, 0x00, 0x09, 0x0c, 0x00, 0x0c, 0x00,
  0x0b, 0x00, 0x00, 0x00, 0x00, 0x00, 0x04, 0x00, 0x0c, 0x00, 0x00, 0x00,
  0x72, 0x00, 0x00, 0x00, 0x00, 0x00, 0x00, 0x72
};

const int g_pipe_leak_model_len = 5456;

#endif  // PIPE_LEAK_MODEL_DATA_H_
